{"vocab": ["\n", " ", "!", "$", "&", "'", ",", "-", ".", "3", ":", ";", "?", "A", "B", "C", "D", "E", "F", "G", "H", "I", "J", "K", "L", "M", "N", "O", "P", "Q", "R", "S", "T", "U", "V", "W", "X", "Y", "Z", "a", "b", "c", "d", "e", "f", "g", "h", "i", "j", "k", "l", "m", "n", "o", "p", "q", "r", "s", "t", "u", "v", "w", "x", "y", "z", "th", "ou", "er", "in", "an", "the", "or", "is", "\n\n", "en", "ar", "at", "on", "st", "ll", "me", "to", "and", "he", "you", "es", "no", "se", "ha", "re", "of", "ve", "it", "ing", "be", "le", "wi", "my", "hi", "ow", "ce", "for", "ay", "as", "ch", "nd", "ere", "ld", "ir", "ed", "ut", "ro", "not", "li", "de", "we", "hat", "that", "gh", "And", "ke", "'s", "oo", "our", "with", "s,", "ome", "ent", "his", "ri", "your", "thou", "ther", "O:", "ad", "al", "et", "'d", "e,", "all", "ght", "EN", "ur", "have", "him", "IN", "ly", "so", "ra", "this", "S:", "ord", "do", "us", "un", "ho", "ma", "AR", "pe", "ould", "lo", "here", "ood", "id", "thy", "ver", "fa", "are", "ck", "y,", "IO:", "man", "ti", "now", "The", "am", "sha", "will", "ess", "ne", "fe", "ain", "but", "su", "ard", "her", "one", "US:", "ter", "con", "ge", "pr", "Th", "To", "end", "om", "ru", "la", "by", "shall", "art", "mor", "UC", "sh", "come", "po", "ING", "up", "rom", "own", "AN", "ta", "That", "what", "ER", "OR", "mo", "sel", "ET", "if", "ous", "te", "go", "good", "ill", "mu", "qu", "But", "ath", "hen", "ble", "ight", "ion", "lord", "thee", "'t", "hich", "king", "'ll", "A:", "What", "was", "bo", "ant", "il", "ven", "KING", "she", "ca", "from", "ine", "ong", "bl", "For", "well", "ul", "them", "sa", "IC", "ak", "sir", "self", "ind", "OL", "would", "s.", "there", "wor", "ct", "ay,", "love", "know", "per", "can", "out", "ive", "EL", "com", "more", "then", "ag", "let", "es,", "IUS:", "ARD", "their", "di", "My", "than", "ci", "--", "ce,", "they", "ST", "see", "o,", "I'll", "E:", "ry", "ep", "like", "ear", "spe", "ON", "est", "me,", "were", "bro", "pro", "ast", "As", "say", "ish", "We", "ink", "may", "hath", "II", "irst", "make", "ple", "ure", "ol", "You", "row", "who", "thing", "He", "tru", "fore", "must", "ap", "ate", "gra", "ound", "ith", "you,", "Go", "ave", "some", "ook", "should", "father", "fi", "RO", "time", "TIO:", "use", "d,", "upon", "way", "ence", "ves", "son", "did", "ET:", "er,", "AU", "had", "ig", "reat", "ward", "dis", "how", "which", "death", "oun", "word", "fri", "el", "wo", "If", "sp", "when", "too", "K:", "men", "speak", "entle", "In", "CA", "again", "heart", "ICH", "RICH", "vi", "ful", "t,", "DU", "DUK", "hand", "ers", "DUKE", "yet", "old", "y.", "mar", "Thou", "um", "think", "RICHARD", "ever", "ENTIO:", "pl", "ran", "take", "ER:", "Which", "si", "swe", "Wh", "day", "ac", "Y:", "O,", "hear", "Be", "With", "INC", "ign", "s:", "sir,", "give", "Of", "na", "No", "gu", "such", "First", "land", "most", "blood", "AB", "ex", "brother", "des", "these", "tell", "hea", "ment", "ba", "mine", "ey", "onour", "bre", "other", "where", "LO", "I:", "llow", "How", "Come", "coun", "This", "EST", "look", "new", "s;", "ed,", "UCH", "friend", "Who", "oul", "gentle", "mis", "war", "ught", "vo", "GLO", "GLOUC", "GLOUCEST", "GLOUCESTER:", "chi", "ity", "im", "af", "ving", "rown", "hast", "EEN", "ab", "Lord", "ince", "LI", "God", "urse", "ster", "du", "Rome", "night", "off", "less", "fair", "made", "ang", "ort", "'st", "QU", "QUEEN", "VINC", "VINCENTIO:", "honour", "any", "Mar", "Se", "tion", "much", "OF", "ness", "ance", "er:", "Where", "urn", "thee,", "lord,", "ise", "mi", "So", "Is", "pre", "stand", "ef", "br", "fear", "HEN", "'tis", "Now", "res", "che", "tle", "HENR", "HENRY", "ond", "great", "lt", "ng", "ES", "ust", "part", "it,", "never", "lie", "ORI", "pt", "th,", "Your", "live", "sc", "arm", "cond", "It", "jo", "ES:", "ser", "call", "o'", "read", "fo", "head", "YOR", "YORK:", "bear", "iti", "ation", "Or", "bet", "INIUS:", "cannot", "pa", "heaven", "ber", "ase", "int", "noble", "PET", "fl", "und", "ue", "been", "sweet", "very", "it.", "'T", "An", "ED", "EDW", "EDWARD", "Why,", "GR", "fort", "que", "TH", "ree", "ough", "mer", "nor", "UM", "MI", "MEN", "pp", "doth", "LE", "LUC", "da", "ouse", "lad", "mean", "There", "ic", "ing,", "IS", "him,", "comm", "man:", "ELL", "rest", "When", "ty", "on,", "name", "age", "Ed", "life", "zen", "ME", "co", "soul", "wr", "Edward", "ROME", "ROMEO:", "MENEN", "MENENIUS:", "world", "By", "tr", "red", "queen", "Ri", "s?", "Let", "Here", "Then", "orn", "pri", "down", "true", "dead", "PETR", "PETRUCH", "PETRUCHIO:", "'d,", "pres", "ower", "OM", "pray", "long", "ass", "him.", "Ay,", "ake", "before", "Than", "op", "gr", "wick", "ie", "mother", "Come,", "leave", "hold", "myself", "us,", "em", "MAR", "Cl", "HA", "ONT", "you.", "cour", "s!", "cause", "house", "ull", "put", "me.", "ret", "ren", "CORI", "CORIOL", "CORIOLAN", "Second", "being", "tri", "Nor", "one,", "CORIOLANUS:", "whi", "thought", "grace", "Rich", "BA", "child", "poor", "lif", "both", "itizen", "ved", "ite", "set", "She", "der", "wh", "ore", "thus", "sw", "daught", "foo", "tra", "INA:", "cl", "right", "IV", "D:", "beg", "III:", "might", "Sir", "Do", "done", "atter", "crown", "pla", "atch", "light", "ten", "k,", "shi", "bid", "ss", "War", "Warwick", "ly,", "gri", "ach", "comes", "His", "many", "a,", "not,", "es.", "lit", "ll,", "'Tis", "AD", "pose", "ISAB", "ISABELL", "ISABELLA:", "st,", "nothing", "tal", "par", "kind", "tong", "bra", "ed.", "RAN", "And,", "better", "mad", "away", "ose", "JU", "JULI", "JULIET:", "LEONT", "LEONTES:", "cious", "though", "led", "uck", "able", "LAD", "LADY", "VOL", "ban", "ENC", "ENCE:", "till", "stay", "show", "tend", "ither", "BR", "Citizen", "against", "le,", "sent", "ice", "Ser", "Nay,", "and,", "er.", "now,", "those", "Pro", "ft", "sle", "little", "man,", "What,", "SIC", "SICINIUS:", "hour", "far", "die", "tent", "lp", "ace", "'er", "ction", "Sha", "tre", "h,", "dear", "pur", "Un", "keep", "No,", "tear", "urder", "char", "best", "tain", "still", "law", "himself", "oud", "Not", "den", "ry,", "back", "io", "full", "Thy", "LUCIO:", "kes", "unto", "sub", "gar", "TI", "to-", "Richard", "IV:", "ted", "Have", "ech", "ess,", "thank", "roy", "LO:", "first", "Will", "else", "ts", "wife", "could", "high", "bes", "eyes", "so,", "ison", "sor", "Yor", "duke", "ought", "hus", "conf", "Hen", "two", "in,", "cut", "H:", "nat", "dy", "find", "ing.", "come,", "young", "ELI", "ELIZ", "ELIZAB", "ELIZABET", "ELIZABETH:", "ate,", "cha", "hor", "bring", "une", "Good", "ople", "je", "min", "just", "mind", "get", "home", "qui", "GRE", "IAN", "people", "itor", "Yet", "husb", "under", "seem", "arewell", "I,", "ason", "CL", "ene", "ste", "comp", "forth", "after", "happ", "MER", "PER", "All", "need", "ins", "ship", "joy", "gi", "fall", "Now,", "WAR", "WARW", "WARWIC", "WARWICK:", "Citizen:", "master", "ister", "fellow", "face", "follow", "UT", "y:", "wel", "bu", "vant", "king,", "II:", "rep", "deed", "car", "lay", "thine", "ardon", "Nurse", "please", "came", "HAM", "HAM:", "They", "hither", "said", "Shall", "prince", "morrow", "CAP", "CAPU", "CAPUL", "CAPULET:", "every", "gone", "dou", "kill", "pat", "Well,", "year", "Romeo", "ces", "ken", "acc", "heard", "power", "am,", "BRUT", "BRUTUS:", "tem", "me;", "raw", "BUC", "BUCKING", "BUCKINGHAM:", "ly.", "help", "tongue", "thr", "From", "once", "sit", "ies", "jest", "clo", "ge,", "BOL", "BOLING", "BOLINGB", "BOLINGBRO", "BOLINGBROK", "BOLINGBROKE:", "TRAN", "TRANIO:", "bus", "whose", "marri", "present", "st:", "ence,", "wit", "Nurse:", "Our", "bri", "peace", "mon", "hope", "maid", "royal", "count", "iness", "sen", "lack", "ator", "cent", "hence", "wrong", "King", "cur", "sun", "On", "meet", "fal", "Why", "sorrow", "MARG", "MARGAR", "MARGARET:", "ESS", "gain", "sand", "answ", "gen", "m,", "daughter", "MIL", "ATH", "god", "vir", "say,", "none", "husband", "pardon", "then,", "ings", "pi", "is,", "stru", "about", "reme", "ark", "Bo", "vere", "cous", "Clar", "ford", "ANG", "ANGEL", "ANGELO:", "HOR", "run", "vil", "eng", "fool", "weep", "St", "York", "Eng", "EL:", "CU", "ARINA:", "Marci", "ceive", "wear", "gracious", "Henry", "KATH", "KATHARINA:", "place", "over", "y;", "last", "into", "ff", "thousand", "pet", "mber", "stri", "swear", "asure", "love,", "Du", "since", "er'd", "Up", "turn", "spir", "xt", "therefore", "grief", "ESCA", "ESCAL", "ESCALUS:", "ject", "content", "Sir,", "ud", "ps", "eld", "whom", "lord.", "Pr", "Her", "str", "es;", "broke", "dow", "prove", "death,", "Hath", "sl", "AND:", "cra", "ting", "makes", "bed", "gre", "earth", "vill", "Duke", "DUCH", "men,", "pass", "vy", "rant", "se,", "pher", "son,", "sleep", "gl", "Provo", "ROS", "Ange", "while", "faul", "kne", "vis", "sound", "dre", "anca", "father,", "Angelo", "lieve", "grave", "ange", "another", "eech", "doub", "IA:", "prison", "wa", "traitor", "dost", "VI:", "CAMIL", "CAMILLO:", "Would", "even", "matter", "Even", "sword", "form", "sure", "pati", "cle", "bal", "wilt", "DUCHESS", "RI", "cor", "fight", "ze", "arn", "aint", "vereign", "tw", "life,", "HORT", "HORTEN", "HORTENS", "vent", "has", "us.", "But,", "offi", "ouch", "Upon", "lady", "father's", "draw", "d:", "sovereign", "sed", "ish'd", "thou,", "FRI", "FRIAR", "HORTENSIO:", "rather", "virt", "send", "ion,", "i'", "va", "me:", "play", "Are", "fortune", "Thi", "own:", "talk", "Ty", "BAP", "BAPTI", "BAPTIST", "BAPTISTA:", "reven", "mb", "sla", "COM", "COMINIUS:", "ged", "ire", "cess", "false", "EDWARD:", "AUT", "AUTOL", "AUTOLY", "AUTOLYC", "AUTOLYCUS:", "its", "ity,", "selves", "want", "deser", "hang", "At", ",--", "More", "wom", "spo", "reason", "sir.", "Thir", "o'er", "comfort", "woman", "Murder", "CLAR", "CLARENCE:", "EY:", "ield", "hone", "breath", "med", "stran", "wn", "wind", "Third", "l,", "shalt", "tress", "happy", "Provost:", "common", "prom", "Take", "cer", "Gentle", "ell", "ck,", "lies", "fect", "thee.", "lau", "iss", "holy", "aut", "vant:", "NOR", "BEN", "BENVOL", "BENVOLIO:", "Clown:", "les", "enough", "igh", "sold", "Sh", "sin", "merc", "state", "GRUM", "GRUMIO:", "PROS", "PROSPER", "PROSPERO:", "vice", "only", "hate", "t.", "ctor", "ates", "air", "fore,", "eye", "hum", "bur", "stra", "here,", "pect", "villain", "Murderer:", "MERCU", "MERCUTIO:", "cian", "ery", "nature", "care", "body", "Li", "all,", "that,", "anta", "Were", "three", "worn", "born", "cri", "Ju", "her,", "dream", "LUCENTIO:", "answer", "hop", "point", "ye", "ask", "quest", "sister", "beaut", "LAND:", "Servant:", "POM", "POMP", "fur", "way,", "yield", "Con", "country", "Ro", "sir;", "win", "fire", "beseech", "wish", "Was", "dang", "ning", "ph", "saw", "Give", "ost", "Al", "subject", "bit", "oath", "foul", "PAU", "PAUL", "PAULINA:", "gainst", "deli", "al,", "words", "gether", "appe", "that's", "faith", "seen", "ar,", "force", "me?", "wound", "gentleman", "POMPEY:", "GREM", "GREMIO:", "'t.", "soldi", "sm", "gener", "ior", "well,", "wis", "Go,", "VOLUM", "VOLUMN", "VOLUMNIA:", "yourself", "free", "horse", "Look", "'d.", "ori", "gro", "cla", "England", "POL", "POLI", "POLIX", "POLIXEN", "POLIXENES:", "why", "them,", "ers,", "break", "hal", "not.", "Some", "him;", "got", "beat", "so.", "ent,", "Serving", "Servingman:", "HAST", "HASTING", "HASTINGS:", "prin", "BER", "GON", "bat", "Did", "cre", "ves,", "together", "unt", "sing", "children", "believe", "dem", "pain", "lives", "let's", "Can", "et,", "Hast", "majest", "Lu", "T:", "Tybal", "LAU", "LAUR", "LAURENCE:", "he's", "bour", "this,", "told", "command", "ga", "warrant", "save", "you;", "May", "lam", "sight", "wat", "Clarence", "BY:", "Juli", "Pet", "ius", "proud", "oft", "business", "ne'er", "plain", "change", "him:", "friends", "farewell", "within", "be,", "lords,", "cousin", "CLI", "CLIF", "CLIFF", "NORTH", "NORTHUM", "NORTHUMBER", "NORTHUMBERLAND:", "ris", "honest", "known", "Though", "trust", "worthy", "half", "dest", "ID", "return", "VI", "bloody", "welcome", "you?", "shame", "sad", "gold", "cold", "day,", "rance", "ford,", "Marcius", "wond", "purpose", "y?", "through", "vour", "ator:", "Com", "s'", "hard", "truth", "gue", "de,", "grow", "without", "left", "nurse", "kiss", "ANN", "ANNE:", "Mon", "report", "ve,", "mark", "Le", "news", "Had", "tender", "pluck", "Whi", "athe", "es:", "times", "rel", "learn", "fe,", "heir", "Clif", "PR", "PRINC", "Sign", "ONE:", "IAN:", "cons", "curse", "fit", "found", "Gre", "Tell", "obe", "death.", "ush", "e'er", "past", "court", "thyself", "ised", "mistress", "Edward's", "pen", "ster,", "Ah,", "to-morrow", "ORD:", "Bol", "Boling", "Bolingbroke", "Signior", "strong", "Re", "Should", "well.", "tro", "late", "on.", "more,", "sworn", "Farewell", "person", "bow", "fet", "sil", "pity", "pair", "ground", "sea", "Whose", "murder", "Cam", "Ca", "fault", "ition", "up,", "instru", "things", "bold", "you:", "entreat", "danger", "Me", "blow", "deep", "woo", "dut", "devil", "enty", "ek", "claim", "lost", "lou", "king.", "Warwick,", "Monta", "centio", "we'll", "One", "Like", "he,", "quar", "strange", "def", "dom", "Sen", "lip", "Su", "letter", "doubt", "does", "ather", "again.", "dare", "toward", "ench", "bles", "Mast", "straight", "soon", "enter", "hands", "heavy", "slain", "Po", "age,", "enemy", "ob", "city", "friends,", "it:", "each", "no,", "cry", "Mess", "Messeng", "Messenger:", "move", "AUF", "AUFID", "AUFIDIUS:", "ist", "sue", "choo", "open", "worth", "counter", "touch", "ecut", "Jo", "sup", "will,", "brother,", "Lord:", "fol", "God,", "FL", "FLORI", "FLORIZ", "FLORIZEL:", "ling", "grant", "means", "mock", "brought", "press", "These", "prof", "thinks", "harm", "all.", "cro", "widow", "execut", "ace,", "bir", "hand,", "woe", "LE:", "TON", "ARI", "ION", "Clau", "Claudi", "ceed", "au", "bar", "cal", "ishe", "rich", "feel", "at,", "rew", "Senator:", "Mad", "charge", "tears", "itself", "consu", "jud", "her.", "near", "banish", "as,", "Gentleman:", "God's", "SE", "resol", "Against", "Cap", "deliver", "I'", "MARC", "lead", "stor", "cho", "what's", "field", "bound", "lose", "stren", "streng", "pos", "adv", "De", "pleasure", "dr", "them.", "twenty", "it?", "desire", "foot", "sake", "d.", "apt", "women", "y!", "Glou", "Glouce", "RICHARD:", "Shepher", "SEBA", "SEBAST", "SEBASTIAN:", "tit", "it;", "fection", "blood,", "counsel", "wise", "MARCIUS:", "What's", "ed;", "ity.", "val", "behold", "ilt", "quick", "ance,", "burn", "same", "virtu", "either", "lord;", "fearful", "wife,", "years", "mus", "ingha", "OW", "Camill", "Shepherd:", "sur", "gods", "main", "general", "fer", "this?", "le.", "Vol", "strike", "suc", "Till", "seek", "ched", "done,", "dro", "vow", "remember", "wret", "time,", "dam", "why,", "loving", "dish", "boso", "sat", "umber", "Buck", "Buckingha", "tor", "BION", "BIOND", "BIONDELL", "BIONDELLO:", "'t,", "attend", "act", "there's", "pret", "bell", "says", ".'", "ready", "Ha", "har", "outh", "Au", "fid", "Then,", "cover", "ween", "Lad", "ches", "haste", "given", "mother,", "sign", "one.", "something", "sto", "voic", "ness,", "canst", "queen,", "Norfol", "speak.", "suff", "become", "loved", "ms", "indeed", "ious", "flatter", "know,", "!'", "miss", "n'd", "heaven,", "uncle", "wast", "looks", "serve", "ed:", "Wel", "wixt", "cept", "pie", "live,", "kn", "knew", "watch", "or,", "night,", "OP", "cred", "AUMER", "AUMERLE:", "ANTON", "ANTONIO:", "revenge", "enemi", "ash", "low", "thri", "ide", "pow", "stir", "man.", "Madam,", "Thus", "brave", "pra", "knows", "there,", "fast", "tongu", "ion.", "confess", "service", "mortal", "again,", "Tran", "aw", "hood", "allow", "Lanca", "king's", "didst", "Bi", "GONZ", "GONZA", "GONZALO:", "ger", "ped", "ous,", "used", "heart,", "Ye", "vers", "justice", "bun", "held", "certain", "eper", "inde", "hur", "took", "ing:", "ard,", "mine,", "brother's", "too,", "poss", "cast", "Most", "honour,", "star", "Say", "cloud", "book", "name,", "abo", "prop", "breathe", "Pom", "HER", "Kate", "Bianca", "come.", "do,", "ments", "ice,", "Bes", "four", "short", "brow", "breast", "whe", "speed", "Pl", "ian", "grie", "ment,", "consent", "often", "sir?", "gave", "bon", "spirit", "compan", "tempt", "cure", "ine,", "go,", "marry", "Marry,", "Romeo,", "io,", "Petru", "CLIFFORD:", "HERMI", "HERMIONE:", "CLAU", "CLAUD", "CLAUDIO:", "further", "usur", "ily", "ner", "cy", "Make", "sick"], "merges": [["t", "h"], ["o", "u"], ["e", "r"], ["i", "n"], ["a", "n"], ["th", "e"], ["o", "r"], ["i", "s"], ["\n", "\n"], ["e", "n"], ["a", "r"], ["a", "t"], ["o", "n"], ["s", "t"], ["l", "l"], ["m", "e"], ["t", "o"], ["an", "d"], ["h", "e"], ["y", "ou"], ["e", "s"], ["n", "o"], ["s", "e"], ["h", "a"], ["r", "e"], ["o", "f"], ["v", "e"], ["i", "t"], ["in", "g"], ["b", "e"], ["l", "e"], ["w", "i"], ["m", "y"], ["h", "i"], ["o", "w"], ["c", "e"], ["f", "or"], ["a", "y"], ["a", "s"], ["c", "h"], ["n", "d"], ["er", "e"], ["l", "d"], ["i", "r"], ["e", "d"], ["u", "t"], ["r", "o"], ["no", "t"], ["l", "i"], ["d", "e"], ["w", "e"], ["h", "at"], ["th", "at"], ["g", "h"], ["A", "nd"], ["k", "e"], ["'", "s"], ["o", "o"], ["ou", "r"], ["wi", "th"], ["s", ","], ["o", "me"], ["en", "t"], ["h", "is"], ["r", "i"], ["you", "r"], ["th", "ou"], ["th", "er"], ["O", ":"], ["a", "d"], ["a", "l"], ["e", "t"], ["'", "d"], ["e", ","], ["a", "ll"], ["gh", "t"], ["E", "N"], ["u", "r"], ["ha", "ve"], ["hi", "m"], ["I", "N"], ["l", "y"], ["s", "o"], ["r", "a"], ["th", "is"], ["S", ":"], ["or", "d"], ["d", "o"], ["u", "s"], ["u", "n"], ["h", "o"], ["m", "a"], ["A", "R"], ["p", "e"], ["ou", "ld"], ["l", "o"], ["h", "ere"], ["oo", "d"], ["i", "d"], ["th", "y"], ["v", "er"], ["f", "a"], ["ar", "e"], ["c", "k"], ["y", ","], ["I", "O:"], ["m", "an"], ["t", "i"], ["no", "w"], ["T", "he"], ["a", "m"], ["s", "ha"], ["wi", "ll"], ["es", "s"], ["n", "e"], ["f", "e"], ["a", "in"], ["b", "ut"], ["s", "u"], ["ar", "d"], ["h", "er"], ["on", "e"], ["U", "S:"], ["t", "er"], ["c", "on"], ["g", "e"], ["p", "r"], ["T", "h"], ["T", "o"], ["en", "d"], ["o", "m"], ["r", "u"], ["l", "a"], ["b", "y"], ["sha", "ll"], ["ar", "t"], ["m", "or"], ["U", "C"], ["s", "h"], ["c", "ome"], ["p", "o"], ["IN", "G"], ["u", "p"], ["ro", "m"], ["ow", "n"], ["A", "N"], ["t", "a"], ["T", "hat"], ["w", "hat"], ["E", "R"], ["O", "R"], ["m", "o"], ["se", "l"], ["E", "T"], ["i", "f"], ["ou", "s"], ["t", "e"], ["g", "o"], ["g", "ood"], ["i", "ll"], ["m", "u"], ["q", "u"], ["B", "ut"], ["a", "th"], ["h", "en"], ["b", "le"], ["i", "ght"], ["i", "on"], ["l", "ord"], ["the", "e"], ["'", "t"], ["hi", "ch"], ["k", "ing"], ["'", "ll"], ["A", ":"], ["W", "hat"], ["w", "as"], ["b", "o"], ["an", "t"], ["i", "l"], ["v", "en"], ["K", "ING"], ["s", "he"], ["c", "a"], ["f", "rom"], ["in", "e"], ["on", "g"], ["b", "l"], ["F", "or"], ["we", "ll"], ["u", "l"], ["the", "m"], ["s", "a"], ["I", "C"], ["a", "k"], ["s", "ir"], ["sel", "f"], ["in", "d"], ["O", "L"], ["w", "ould"], ["s", "."], ["th", "ere"], ["w", "or"], ["c", "t"], ["ay", ","], ["lo", "ve"], ["k", "now"], ["p", "er"], ["c", "an"], ["ou", "t"], ["i", "ve"], ["E", "L"], ["c", "om"], ["mor", "e"], ["the", "n"], ["a", "g"], ["le", "t"], ["es", ","], ["I", "US:"], ["AR", "D"], ["the", "ir"], ["d", "i"], ["M", "y"], ["th", "an"], ["c", "i"], ["-", "-"], ["ce", ","], ["the", "y"], ["S", "T"], ["se", "e"], ["o", ","], ["I", "'ll"], ["E", ":"], ["r", "y"], ["e", "p"], ["li", "ke"], ["e", "ar"], ["s", "pe"], ["O", "N"], ["e", "st"], ["me", ","], ["w", "ere"], ["b", "ro"], ["p", "ro"], ["a", "st"], ["A", "s"], ["s", "ay"], ["is", "h"], ["W", "e"], ["in", "k"], ["m", "ay"], ["ha", "th"], ["I", "I"], ["ir", "st"], ["ma", "ke"], ["p", "le"], ["u", "re"], ["o", "l"], ["Y", "ou"], ["r", "ow"], ["w", "ho"], ["th", "ing"], ["H", "e"], ["t", "ru"], ["for", "e"], ["mu", "st"], ["a", "p"], ["at", "e"], ["g", "ra"], ["ou", "nd"], ["i", "th"], ["you", ","], ["G", "o"], ["a", "ve"], ["s", "ome"], ["oo", "k"], ["sh", "ould"], ["fa", "ther"], ["f", "i"], ["R", "O"], ["ti", "me"], ["T", "IO:"], ["u", "se"], ["d", ","], ["up", "on"], ["w", "ay"], ["en", "ce"], ["v", "es"], ["s", "on"], ["d", "id"], ["ET", ":"], ["er", ","], ["A", "U"], ["ha", "d"], ["i", "g"], ["re", "at"], ["w", "ard"], ["d", "is"], ["h", "ow"], ["w", "hich"], ["de", "ath"], ["ou", "n"], ["w", "ord"], ["f", "ri"], ["e", "l"], ["w", "o"], ["I", "f"], ["s", "p"], ["w", "hen"], ["to", "o"], ["K", ":"], ["m", "en"], ["spe", "ak"], ["ent", "le"], ["I", "n"], ["C", "A"], ["ag", "ain"], ["he", "art"], ["IC", "H"], ["R", "ICH"], ["v", "i"], ["f", "ul"], ["t", ","], ["D", "U"], ["DU", "K"], ["h", "and"], ["er", "s"], ["DUK", "E"], ["y", "et"], ["o", "ld"], ["y", "."], ["m", "ar"], ["Th", "ou"], ["u", "m"], ["th", "ink"], ["RICH", "ARD"], ["e", "ver"], ["EN", "TIO:"], ["p", "l"], ["r", "an"], ["ta", "ke"], ["ER", ":"], ["W", "hich"], ["s", "i"], ["s", "we"], ["W", "h"], ["d", "ay"], ["a", "c"], ["Y", ":"], ["O", ","], ["he", "ar"], ["B", "e"], ["W", "ith"], ["IN", "C"], ["ig", "n"], ["s", ":"], ["sir", ","], ["g", "ive"], ["O", "f"], ["n", "a"], ["N", "o"], ["g", "u"], ["su", "ch"], ["F", "irst"], ["l", "and"], ["mo", "st"], ["bl", "ood"], ["A", "B"], ["e", "x"], ["bro", "ther"], ["d", "es"], ["the", "se"], ["te", "ll"], ["he", "a"], ["m", "ent"], ["b", "a"], ["m", "ine"], ["e", "y"], ["on", "our"], ["b", "re"], ["o", "ther"], ["w", "here"], ["L", "O"], ["I", ":"], ["ll", "ow"], ["H", "ow"], ["C", "ome"], ["c", "oun"], ["T", "his"], ["E", "ST"], ["l", "ook"], ["ne", "w"], ["s", ";"], ["ed", ","], ["UC", "H"], ["fri", "end"], ["W", "ho"], ["ou", "l"], ["g", "entle"], ["m", "is"], ["w", "ar"], ["u", "ght"], ["v", "o"], ["G", "LO"], ["GLO", "UC"], ["GLOUC", "EST"], ["GLOUCEST", "ER:"], ["c", "hi"], ["it", "y"], ["i", "m"], ["a", "f"], ["v", "ing"], ["r", "own"], ["ha", "st"], ["E", "EN"], ["a", "b"], ["L", "ord"], ["in", "ce"], ["L", "I"], ["Go", "d"], ["ur", "se"], ["st", "er"], ["d", "u"], ["R", "ome"], ["n", "ight"], ["of", "f"], ["l", "ess"], ["fa", "ir"], ["ma", "de"], ["an", "g"], ["or", "t"], ["'", "st"], ["Q", "U"], ["QU", "EEN"], ["V", "INC"], ["VINC", "ENTIO:"], ["h", "onour"], ["an", "y"], ["M", "ar"], ["S", "e"], ["ti", "on"], ["mu", "ch"], ["O", "F"], ["n", "ess"], ["an", "ce"], ["er", ":"], ["W", "here"], ["ur", "n"], ["the", "e,"], ["lord", ","], ["is", "e"], ["m", "i"], ["S", "o"], ["I", "s"], ["p", "re"], ["st", "and"], ["e", "f"], ["b", "r"], ["fe", "ar"], ["H", "EN"], ["'t", "is"], ["N", "ow"], ["r", "es"], ["c", "he"], ["t", "le"], ["HEN", "R"], ["HENR", "Y"], ["on", "d"], ["g", "reat"], ["l", "t"], ["n", "g"], ["E", "S"], ["u", "st"], ["p", "art"], ["it", ","], ["ne", "ver"], ["li", "e"], ["OR", "I"], ["p", "t"], ["th", ","], ["Y", "our"], ["li", "ve"], ["s", "c"], ["ar", "m"], ["con", "d"], ["I", "t"], ["j", "o"], ["E", "S:"], ["s", "er"], ["c", "all"], ["o", "'"], ["re", "ad"], ["f", "o"], ["he", "ad"], ["Y", "OR"], ["YOR", "K:"], ["be", "ar"], ["it", "i"], ["at", "ion"], ["O", "r"], ["be", "t"], ["IN", "IUS:"], ["can", "not"], ["p", "a"], ["hea", "ven"], ["b", "er"], ["a", "se"], ["in", "t"], ["no", "ble"], ["P", "ET"], ["f", "l"], ["u", "nd"], ["u", "e"], ["be", "en"], ["swe", "et"], ["ver", "y"], ["it", "."], ["'", "T"], ["A", "n"], ["E", "D"], ["ED", "W"], ["EDW", "ARD"], ["Wh", "y,"], ["G", "R"], ["for", "t"], ["qu", "e"], ["T", "H"], ["re", "e"], ["ou", "gh"], ["m", "er"], ["n", "or"], ["U", "M"], ["M", "I"], ["M", "EN"], ["p", "p"], ["do", "th"], ["L", "E"], ["L", "UC"], ["d", "a"], ["ou", "se"], ["l", "ad"], ["me", "an"], ["T", "here"], ["i", "c"], ["ing", ","], ["I", "S"], ["him", ","], ["com", "m"], ["man", ":"], ["EL", "L"], ["re", "st"], ["W", "hen"], ["t", "y"], ["on", ","], ["na", "me"], ["a", "ge"], ["E", "d"], ["li", "fe"], ["z", "en"], ["M", "E"], ["c", "o"], ["s", "oul"], ["w", "r"], ["Ed", "ward"], ["RO", "ME"], ["ROME", "O:"], ["MEN", "EN"], ["MENEN", "IUS:"], ["wor", "ld"], ["B", "y"], ["t", "r"], ["re", "d"], ["que", "en"], ["R", "i"], ["s", "?"], ["L", "et"], ["H", "ere"], ["Th", "en"], ["or", "n"], ["p", "ri"], ["d", "own"], ["tru", "e"], ["de", "ad"], ["PET", "R"], ["PETR", "UCH"], ["PETRUCH", "IO:"], ["'d", ","], ["pr", "es"], ["ow", "er"], ["O", "M"], ["pr", "ay"], ["l", "ong"], ["as", "s"], ["him", "."], ["A", "y,"], ["a", "ke"], ["be", "fore"], ["Th", "an"], ["o", "p"], ["g", "r"], ["wi", "ck"], ["i", "e"], ["mo", "ther"], ["Come", ","], ["le", "ave"], ["ho", "ld"], ["my", "self"], ["u", "s,"], ["e", "m"], ["M", "AR"], ["C", "l"], ["H", "A"], ["ON", "T"], ["you", "."], ["c", "our"], ["s", "!"], ["ca", "use"], ["h", "ouse"], ["u", "ll"], ["p", "ut"], ["me", "."], ["re", "t"], ["r", "en"], ["C", "ORI"], ["CORI", "OL"], ["CORIOL", "AN"], ["Se", "cond"], ["be", "ing"], ["t", "ri"], ["N", "or"], ["on", "e,"], ["CORIOLAN", "US:"], ["w", "hi"], ["thou", "ght"], ["gra", "ce"], ["Ri", "ch"], ["B", "A"], ["chi", "ld"], ["po", "or"], ["li", "f"], ["bo", "th"], ["iti", "zen"], ["ve", "d"], ["it", "e"], ["se", "t"], ["S", "he"], ["d", "er"], ["w", "h"], ["or", "e"], ["th", "us"], ["s", "w"], ["da", "ught"], ["f", "oo"], ["t", "ra"], ["IN", "A:"], ["c", "l"], ["ri", "ght"], ["I", "V"], ["D", ":"], ["be", "g"], ["II", "I:"], ["m", "ight"], ["S", "ir"], ["D", "o"], ["d", "one"], ["at", "ter"], ["c", "rown"], ["p", "la"], ["at", "ch"], ["li", "ght"], ["t", "en"], ["k", ","], ["s", "hi"], ["b", "id"], ["s", "s"], ["W", "ar"], ["War", "wick"], ["ly", ","], ["g", "ri"], ["a", "ch"], ["come", "s"], ["H", "is"], ["man", "y"], ["a", ","], ["not", ","], ["es", "."], ["l", "it"], ["ll", ","], ["'T", "is"], ["A", "D"], ["po", "se"], ["IS", "AB"], ["ISAB", "ELL"], ["ISABELL", "A:"], ["st", ","], ["no", "thing"], ["t", "al"], ["p", "ar"], ["k", "ind"], ["t", "ong"], ["b", "ra"], ["ed", "."], ["R", "AN"], ["And", ","], ["bet", "ter"], ["m", "ad"], ["a", "way"], ["o", "se"], ["J", "U"], ["JU", "LI"], ["JULI", "ET:"], ["LE", "ONT"], ["LEONT", "ES:"], ["ci", "ous"], ["thou", "gh"], ["le", "d"], ["u", "ck"], ["a", "ble"], ["L", "AD"], ["LAD", "Y"], ["V", "OL"], ["b", "an"], ["EN", "C"], ["ENC", "E:"], ["ti", "ll"], ["st", "ay"], ["sh", "ow"], ["t", "end"], ["i", "ther"], ["B", "R"], ["C", "itizen"], ["again", "st"], ["le", ","], ["s", "ent"], ["i", "ce"], ["S", "er"], ["N", "ay,"], ["and", ","], ["er", "."], ["now", ","], ["th", "ose"], ["P", "ro"], ["f", "t"], ["s", "le"], ["lit", "tle"], ["man", ","], ["What", ","], ["S", "IC"], ["SIC", "INIUS:"], ["h", "our"], ["f", "ar"], ["di", "e"], ["t", "ent"], ["l", "p"], ["a", "ce"], ["'", "er"], ["c", "tion"], ["S", "ha"], ["t", "re"], ["h", ","], ["de", "ar"], ["p", "ur"], ["U", "n"], ["ke", "ep"], ["N", "o,"], ["te", "ar"], ["ur", "der"], ["ch", "ar"], ["be", "st"], ["t", "ain"], ["st", "ill"], ["la", "w"], ["him", "self"], ["ou", "d"], ["No", "t"], ["d", "en"], ["r", "y,"], ["ba", "ck"], ["i", "o"], ["f", "ull"], ["Th", "y"], ["LUC", "IO:"], ["k", "es"], ["un", "to"], ["su", "b"], ["g", "ar"], ["T", "I"], ["to", "-"], ["Rich", "ard"], ["IV", ":"], ["t", "ed"], ["H", "ave"], ["e", "ch"], ["es", "s,"], ["than", "k"], ["ro", "y"], ["L", "O:"], ["f", "irst"], ["W", "ill"], ["el", "se"], ["t", "s"], ["wi", "fe"], ["c", "ould"], ["hi", "gh"], ["b", "es"], ["ey", "es"], ["so", ","], ["is", "on"], ["s", "or"], ["Y", "or"], ["du", "ke"], ["ou", "ght"], ["h", "us"], ["con", "f"], ["H", "en"], ["t", "wo"], ["in", ","], ["c", "ut"], ["H", ":"], ["n", "at"], ["d", "y"], ["f", "ind"], ["ing", "."], ["come", ","], ["you", "ng"], ["EL", "I"], ["ELI", "Z"], ["ELIZ", "AB"], ["ELIZAB", "ET"], ["ELIZABET", "H:"], ["at", "e,"], ["c", "ha"], ["h", "or"], ["br", "ing"], ["un", "e"], ["G", "ood"], ["o", "ple"], ["j", "e"], ["m", "in"], ["j", "ust"], ["m", "ind"], ["g", "et"], ["h", "ome"], ["qu", "i"], ["GR", "E"], ["I", "AN"], ["pe", "ople"], ["it", "or"], ["Y", "et"], ["hus", "b"], ["und", "er"], ["see", "m"], ["are", "well"], ["I", ","], ["as", "on"], ["C", "L"], ["en", "e"], ["st", "e"], ["com", "p"], ["for", "th"], ["af", "ter"], ["ha", "pp"], ["M", "ER"], ["P", "ER"], ["A", "ll"], ["ne", "ed"], ["in", "s"], ["shi", "p"], ["jo", "y"], ["g", "i"], ["f", "all"], ["Now", ","], ["W", "AR"], ["WAR", "W"], ["WARW", "IC"], ["WARWIC", "K:"], ["Citizen", ":"], ["ma", "ster"], ["is", "ter"], ["fe", "llow"], ["fa", "ce"], ["fo", "llow"], ["U", "T"], ["y", ":"], ["we", "l"], ["b", "u"], ["v", "ant"], ["king", ","], ["II", ":"], ["re", "p"], ["de", "ed"], ["c", "ar"], ["l", "ay"], ["th", "ine"], ["ard", "on"], ["N", "urse"], ["ple", "ase"], ["ca", "me"], ["HA", "M"], ["HAM", ":"], ["The", "y"], ["hi", "ther"], ["sa", "id"], ["Sha", "ll"], ["pr", "ince"], ["mor", "row"], ["CA", "P"], ["CAP", "U"], ["CAPU", "L"], ["CAPUL", "ET:"], ["ever", "y"], ["g", "one"], ["d", "ou"], ["k", "ill"], ["p", "at"], ["We", "ll,"], ["y", "ear"], ["Rome", "o"], ["c", "es"], ["k", "en"], ["ac", "c"], ["he", "ard"], ["p", "ower"], ["am", ","], ["BR", "UT"], ["BRUT", "US:"], ["te", "m"], ["me", ";"], ["ra", "w"], ["B", "UC"], ["BUC", "KING"], ["BUCKING", "HAM:"], ["ly", "."], ["he", "lp"], ["tong", "ue"], ["th", "r"], ["F", "rom"], ["on", "ce"], ["s", "it"], ["i", "es"], ["j", "est"], ["c", "lo"], ["g", "e,"], ["B", "OL"], ["BOL", "ING"], ["BOLING", "B"], ["BOLINGB", "RO"], ["BOLINGBRO", "K"], ["BOLINGBROK", "E:"], ["T", "RAN"], ["TRAN", "IO:"], ["b", "us"], ["who", "se"], ["mar", "ri"], ["pres", "ent"], ["st", ":"], ["en", "ce,"], ["w", "it"], ["Nurse", ":"], ["O", "ur"], ["b", "ri"], ["pe", "ace"], ["m", "on"], ["ho", "pe"], ["ma", "id"], ["roy", "al"], ["coun", "t"], ["in", "ess"], ["s", "en"], ["la", "ck"], ["at", "or"], ["c", "ent"], ["hen", "ce"], ["wr", "ong"], ["K", "ing"], ["c", "ur"], ["s", "un"], ["O", "n"], ["me", "et"], ["f", "al"], ["Wh", "y"], ["sor", "row"], ["MAR", "G"], ["MARG", "AR"], ["MARGAR", "ET:"], ["ES", "S"], ["g", "ain"], ["s", "and"], ["an", "sw"], ["g", "en"], ["m", ","], ["daught", "er"], ["MI", "L"], ["A", "TH"], ["go", "d"], ["v", "ir"], ["s", "ay,"], ["n", "one"], ["husb", "and"], ["p", "ardon"], ["then", ","], ["ing", "s"], ["p", "i"], ["is", ","], ["st", "ru"], ["ab", "out"], ["re", "me"], ["ar", "k"], ["B", "o"], ["v", "ere"], ["c", "ous"], ["Cl", "ar"], ["for", "d"], ["AN", "G"], ["ANG", "EL"], ["ANGEL", "O:"], ["H", "OR"], ["r", "un"], ["v", "il"], ["en", "g"], ["foo", "l"], ["we", "ep"], ["S", "t"], ["Yor", "k"], ["E", "ng"], ["EL", ":"], ["C", "U"], ["AR", "INA:"], ["Mar", "ci"], ["ce", "ive"], ["we", "ar"], ["gra", "cious"], ["Hen", "ry"], ["K", "ATH"], ["KATH", "ARINA:"], ["pla", "ce"], ["o", "ver"], ["y", ";"], ["la", "st"], ["in", "to"], ["f", "f"], ["thou", "sand"], ["p", "et"], ["m", "ber"], ["st", "ri"], ["swe", "ar"], ["as", "ure"], ["love", ","], ["D", "u"], ["s", "ince"], ["er", "'d"], ["U", "p"], ["t", "urn"], ["sp", "ir"], ["x", "t"], ["there", "fore"], ["gri", "ef"], ["ES", "CA"], ["ESCA", "L"], ["ESCAL", "US:"], ["je", "ct"], ["con", "tent"], ["Sir", ","], ["u", "d"], ["p", "s"], ["e", "ld"], ["who", "m"], ["lord", "."], ["P", "r"], ["H", "er"], ["st", "r"], ["es", ";"], ["bro", "ke"], ["d", "ow"], ["pro", "ve"], ["death", ","], ["H", "ath"], ["s", "l"], ["AN", "D:"], ["c", "ra"], ["t", "ing"], ["ma", "kes"], ["be", "d"], ["g", "re"], ["ear", "th"], ["v", "ill"], ["Du", "ke"], ["D", "UCH"], ["men", ","], ["p", "ass"], ["v", "y"], ["r", "ant"], ["se", ","], ["p", "her"], ["son", ","], ["sle", "ep"], ["g", "l"], ["Pro", "vo"], ["RO", "S"], ["An", "ge"], ["whi", "le"], ["fa", "ul"], ["k", "ne"], ["v", "is"], ["s", "ound"], ["d", "re"], ["an", "ca"], ["father", ","], ["Ange", "lo"], ["lie", "ve"], ["gra", "ve"], ["an", "ge"], ["an", "other"], ["e", "ech"], ["dou", "b"], ["I", "A:"], ["pr", "ison"], ["w", "a"], ["tra", "itor"], ["do", "st"], ["V", "I:"], ["CA", "MIL"], ["CAMIL", "LO:"], ["W", "ould"], ["e", "ven"], ["m", "atter"], ["E", "ven"], ["s", "word"], ["for", "m"], ["su", "re"], ["pat", "i"], ["c", "le"], ["b", "al"], ["wi", "lt"], ["DUCH", "ESS"], ["R", "I"], ["c", "or"], ["f", "ight"], ["z", "e"], ["ar", "n"], ["ain", "t"], ["vere", "ign"], ["t", "w"], ["lif", "e,"], ["HOR", "T"], ["HORT", "EN"], ["HORTEN", "S"], ["v", "ent"], ["ha", "s"], ["us", "."], ["But", ","], ["of", "fi"], ["ou", "ch"], ["Up", "on"], ["lad", "y"], ["father", "'s"], ["d", "raw"], ["d", ":"], ["so", "vereign"], ["se", "d"], ["ish", "'d"], ["thou", ","], ["F", "RI"], ["FRI", "AR"], ["HORTENS", "IO:"], ["ra", "ther"], ["vir", "t"], ["s", "end"], ["ion", ","], ["i", "'"], ["v", "a"], ["me", ":"], ["pl", "ay"], ["A", "re"], ["fort", "une"], ["T", "hi"], ["own", ":"], ["tal", "k"], ["T", "y"], ["BA", "P"], ["BAP", "TI"], ["BAPTI", "ST"], ["BAPTIST", "A:"], ["re", "ven"], ["m", "b"], ["s", "la"], ["C", "OM"], ["COM", "INIUS:"], ["g", "ed"], ["i", "re"], ["c", "ess"], ["fal", "se"], ["EDWARD", ":"], ["AU", "T"], ["AUT", "OL"], ["AUTOL", "Y"], ["AUTOLY", "C"], ["AUTOLYC", "US:"], ["it", "s"], ["it", "y,"], ["sel", "ves"], ["w", "ant"], ["des", "er"], ["h", "ang"], ["A", "t"], [",", "--"], ["M", "ore"], ["w", "om"], ["s", "po"], ["re", "ason"], ["sir", "."], ["Thi", "r"], ["o'", "er"], ["com", "fort"], ["wo", "man"], ["M", "urder"], ["CL", "AR"], ["CLAR", "ENCE:"], ["E", "Y:"], ["ie", "ld"], ["h", "one"], ["bre", "ath"], ["me", "d"], ["st", "ran"], ["w", "n"], ["w", "ind"], ["Thir", "d"], ["l", ","], ["sha", "lt"], ["tr", "ess"], ["happ", "y"], ["Provo", "st:"], ["comm", "on"], ["p", "rom"], ["T", "ake"], ["c", "er"], ["G", "entle"], ["e", "ll"], ["ck", ","], ["li", "es"], ["fe", "ct"], ["thee", "."], ["la", "u"], ["is", "s"], ["ho", "ly"], ["a", "ut"], ["vant", ":"], ["N", "OR"], ["B", "EN"], ["BEN", "VOL"], ["BENVOL", "IO:"], ["Cl", "own:"], ["l", "es"], ["en", "ough"], ["i", "gh"], ["so", "ld"], ["S", "h"], ["s", "in"], ["mer", "c"], ["st", "ate"], ["GR", "UM"], ["GRUM", "IO:"], ["P", "ROS"], ["PROS", "PER"], ["PROSPER", "O:"], ["vi", "ce"], ["on", "ly"], ["hat", "e"], ["t", "."], ["ct", "or"], ["at", "es"], ["a", "ir"], ["for", "e,"], ["ey", "e"], ["h", "um"], ["b", "ur"], ["st", "ra"], ["here", ","], ["pe", "ct"], ["vill", "ain"], ["Murder", "er:"], ["MER", "CU"], ["MERCU", "TIO:"], ["ci", "an"], ["er", "y"], ["nat", "ure"], ["c", "are"], ["bo", "dy"], ["L", "i"], ["all", ","], ["that", ","], ["an", "ta"], ["W", "ere"], ["th", "ree"], ["wor", "n"], ["b", "orn"], ["c", "ri"], ["J", "u"], ["her", ","], ["dre", "am"], ["LUC", "ENTIO:"], ["answ", "er"], ["ho", "p"], ["po", "int"], ["y", "e"], ["as", "k"], ["qu", "est"], ["s", "ister"], ["be", "aut"], ["L", "AND:"], ["Ser", "vant:"], ["P", "OM"], ["POM", "P"], ["f", "ur"], ["w", "ay,"], ["y", "ield"], ["C", "on"], ["count", "ry"], ["R", "o"], ["sir", ";"], ["w", "in"], ["fi", "re"], ["bes", "eech"], ["w", "ish"], ["W", "as"], ["d", "ang"], ["n", "ing"], ["p", "h"], ["sa", "w"], ["G", "ive"], ["o", "st"], ["A", "l"], ["sub", "ject"], ["b", "it"], ["o", "ath"], ["f", "oul"], ["P", "AU"], ["PAU", "L"], ["PAUL", "INA:"], ["gain", "st"], ["de", "li"], ["al", ","], ["word", "s"], ["ge", "ther"], ["ap", "pe"], ["that", "'s"], ["fa", "ith"], ["se", "en"], ["ar", ","], ["for", "ce"], ["me", "?"], ["w", "ound"], ["gentle", "man"], ["POMP", "EY:"], ["GRE", "M"], ["GREM", "IO:"], ["'t", "."], ["sold", "i"], ["s", "m"], ["gen", "er"], ["i", "or"], ["well", ","], ["w", "is"], ["G", "o,"], ["VOL", "UM"], ["VOLUM", "N"], ["VOLUMN", "IA:"], ["your", "self"], ["f", "ree"], ["hor", "se"], ["L", "ook"], ["'d", "."], ["or", "i"], ["g", "ro"], ["c", "la"], ["Eng", "land"], ["P", "OL"], ["POL", "I"], ["POLI", "X"], ["POLIX", "EN"], ["POLIXEN", "ES:"], ["wh", "y"], ["them", ","], ["er", "s,"], ["bre", "ak"], ["ha", "l"], ["not", "."], ["S", "ome"], ["him", ";"], ["go", "t"], ["be", "at"], ["so", "."], ["ent", ","], ["Ser", "ving"], ["Serving", "man:"], ["HA", "ST"], ["HAST", "ING"], ["HASTING", "S:"], ["pr", "in"], ["B", "ER"], ["G", "ON"], ["b", "at"], ["D", "id"], ["c", "re"], ["v", "es,"], ["to", "gether"], ["un", "t"], ["s", "ing"], ["child", "ren"], ["be", "lieve"], ["de", "m"], ["p", "ain"], ["li", "ves"], ["let", "'s"], ["C", "an"], ["et", ","], ["H", "ast"], ["ma", "jest"], ["L", "u"], ["T", ":"], ["Ty", "bal"], ["L", "AU"], ["LAU", "R"], ["LAUR", "ENCE:"], ["he", "'s"], ["b", "our"], ["this", ","], ["to", "ld"], ["comm", "and"], ["g", "a"], ["war", "rant"], ["sa", "ve"], ["you", ";"], ["M", "ay"], ["l", "am"], ["s", "ight"], ["w", "at"], ["Clar", "ence"], ["B", "Y:"], ["Ju", "li"], ["P", "et"], ["i", "us"], ["pr", "oud"], ["of", "t"], ["bus", "iness"], ["ne", "'er"], ["pl", "ain"], ["ch", "ange"], ["him", ":"], ["friend", "s"], ["f", "arewell"], ["with", "in"], ["be", ","], ["lord", "s,"], ["cous", "in"], ["C", "LI"], ["CLI", "F"], ["CLIF", "F"], ["NOR", "TH"], ["NORTH", "UM"], ["NORTHUM", "BER"], ["NORTHUMBER", "LAND:"], ["r", "is"], ["hone", "st"], ["know", "n"], ["Thou", "gh"], ["tru", "st"], ["wor", "thy"], ["hal", "f"], ["de", "st"], ["I", "D"], ["ret", "urn"], ["V", "I"], ["blood", "y"], ["wel", "come"], ["you", "?"], ["sha", "me"], ["s", "ad"], ["go", "ld"], ["c", "old"], ["d", "ay,"], ["ran", "ce"], ["for", "d,"], ["Marci", "us"], ["w", "ond"], ["pur", "pose"], ["y", "?"], ["thr", "ough"], ["v", "our"], ["ator", ":"], ["C", "om"], ["s", "'"], ["h", "ard"], ["tru", "th"], ["gu", "e"], ["de", ","], ["g", "row"], ["with", "out"], ["le", "ft"], ["n", "urse"], ["k", "iss"], ["AN", "N"], ["ANN", "E:"], ["M", "on"], ["rep", "ort"], ["ve", ","], ["mar", "k"], ["L", "e"], ["new", "s"], ["H", "ad"], ["tend", "er"], ["pl", "uck"], ["W", "hi"], ["a", "the"], ["es", ":"], ["time", "s"], ["re", "l"], ["le", "arn"], ["f", "e,"], ["he", "ir"], ["C", "lif"], ["P", "R"], ["PR", "INC"], ["S", "ign"], ["ON", "E:"], ["IAN", ":"], ["con", "s"], ["c", "urse"], ["f", "it"], ["f", "ound"], ["G", "re"], ["T", "ell"], ["o", "be"], ["death", "."], ["us", "h"], ["e", "'er"], ["p", "ast"], ["cour", "t"], ["thy", "self"], ["is", "ed"], ["mis", "tress"], ["Edward", "'s"], ["p", "en"], ["st", "er,"], ["A", "h,"], ["to-", "morrow"], ["OR", "D:"], ["B", "ol"], ["Bol", "ing"], ["Boling", "broke"], ["Sign", "ior"], ["str", "ong"], ["R", "e"], ["Sh", "ould"], ["well", "."], ["t", "ro"], ["l", "ate"], ["on", "."], ["mor", "e,"], ["s", "worn"], ["F", "arewell"], ["per", "son"], ["b", "ow"], ["f", "et"], ["s", "il"], ["p", "ity"], ["pa", "ir"], ["gr", "ound"], ["se", "a"], ["Who", "se"], ["m", "urder"], ["C", "am"], ["C", "a"], ["faul", "t"], ["it", "ion"], ["up", ","], ["in", "stru"], ["thing", "s"], ["bo", "ld"], ["you", ":"], ["ent", "reat"], ["dang", "er"], ["M", "e"], ["bl", "ow"], ["de", "ep"], ["w", "oo"], ["d", "ut"], ["de", "vil"], ["ent", "y"], ["e", "k"], ["cla", "im"], ["lo", "st"], ["l", "ou"], ["king", "."], ["Warwick", ","], ["Mon", "ta"], ["cent", "io"], ["we", "'ll"], ["O", "ne"], ["Li", "ke"], ["he", ","], ["qu", "ar"], ["stran", "ge"], ["de", "f"], ["do", "m"], ["S", "en"], ["li", "p"], ["S", "u"], ["let", "ter"], ["doub", "t"], ["do", "es"], ["a", "ther"], ["again", "."], ["d", "are"], ["to", "ward"], ["en", "ch"], ["bl", "es"], ["M", "ast"], ["stra", "ight"], ["so", "on"], ["ent", "er"], ["hand", "s"], ["hea", "vy"], ["sl", "ain"], ["P", "o"], ["ag", "e,"], ["ene", "my"], ["o", "b"], ["c", "ity"], ["friend", "s,"], ["it", ":"], ["e", "ach"], ["no", ","], ["c", "ry"], ["M", "ess"], ["Mess", "eng"], ["Messeng", "er:"], ["mo", "ve"], ["AU", "F"], ["AUF", "ID"], ["AUFID", "IUS:"], ["is", "t"], ["su", "e"], ["ch", "oo"], ["op", "en"], ["wor", "th"], ["coun", "ter"], ["t", "ouch"], ["e", "cut"], ["J", "o"], ["su", "p"], ["will", ","], ["brother", ","], ["Lord", ":"], ["f", "ol"], ["Go", "d,"], ["F", "L"], ["FL", "ORI"], ["FLORI", "Z"], ["FLORIZ", "EL:"], ["l", "ing"], ["gr", "ant"], ["mean", "s"], ["mo", "ck"], ["br", "ought"], ["pr", "ess"], ["The", "se"], ["pr", "of"], ["think", "s"], ["h", "arm"], ["all", "."], ["c", "ro"], ["wi", "dow"], ["ex", "ecut"], ["a", "ce,"], ["b", "ir"], ["hand", ","], ["wo", "e"], ["L", "E:"], ["T", "ON"], ["AR", "I"], ["I", "ON"], ["C", "lau"], ["Clau", "di"], ["ce", "ed"], ["a", "u"], ["b", "ar"], ["c", "al"], ["is", "he"], ["ri", "ch"], ["fe", "el"], ["at", ","], ["re", "w"], ["Sen", "ator:"], ["M", "ad"], ["char", "ge"], ["tear", "s"], ["it", "self"], ["con", "su"], ["j", "ud"], ["her", "."], ["ne", "ar"], ["ban", "ish"], ["as", ","], ["Gentle", "man:"], ["God", "'s"], ["S", "E"], ["res", "ol"], ["A", "gainst"], ["C", "ap"], ["deli", "ver"], ["I", "'"], ["MAR", "C"], ["le", "ad"], ["st", "or"], ["ch", "o"], ["what", "'s"], ["fi", "eld"], ["b", "ound"], ["lo", "se"], ["st", "ren"], ["stren", "g"], ["po", "s"], ["ad", "v"], ["D", "e"], ["ple", "asure"], ["d", "r"], ["them", "."], ["tw", "enty"], ["it", "?"], ["des", "ire"], ["foo", "t"], ["sa", "ke"], ["d", "."], ["ap", "t"], ["wom", "en"], ["y", "!"], ["G", "lou"], ["Glou", "ce"], ["RICHARD", ":"], ["She", "pher"], ["SE", "BA"], ["SEBA", "ST"], ["SEBAST", "IAN:"], ["t", "it"], ["it", ";"], ["fe", "ction"], ["blood", ","], ["coun", "sel"], ["w", "ise"], ["MARC", "IUS:"], ["What", "'s"], ["ed", ";"], ["it", "y."], ["v", "al"], ["be", "hold"], ["il", "t"], ["qui", "ck"], ["an", "ce,"], ["b", "urn"], ["sa", "me"], ["virt", "u"], ["e", "ither"], ["lord", ";"], ["fear", "ful"], ["wi", "fe,"], ["year", "s"], ["m", "us"], ["ing", "ha"], ["O", "W"], ["Cam", "ill"], ["Shepher", "d:"], ["s", "ur"], ["god", "s"], ["ma", "in"], ["gener", "al"], ["f", "er"], ["this", "?"], ["le", "."], ["V", "ol"], ["stri", "ke"], ["su", "c"], ["T", "ill"], ["see", "k"], ["che", "d"], ["d", "one,"], ["d", "ro"], ["v", "ow"], ["reme", "mber"], ["w", "ret"], ["ti", "me,"], ["d", "am"], ["wh", "y,"], ["lo", "ving"], ["d", "ish"], ["bo", "so"], ["s", "at"], ["um", "ber"], ["B", "uck"], ["Buck", "ingha"], ["t", "or"], ["B", "ION"], ["BION", "D"], ["BIOND", "ELL"], ["BIONDELL", "O:"], ["'t", ","], ["at", "tend"], ["a", "ct"], ["there", "'s"], ["pre", "t"], ["be", "ll"], ["say", "s"], [".", "'"], ["read", "y"], ["H", "a"], ["h", "ar"], ["ou", "th"], ["A", "u"], ["f", "id"], ["Then", ","], ["co", "ver"], ["we", "en"], ["L", "ad"], ["che", "s"], ["hast", "e"], ["gi", "ven"], ["mother", ","], ["s", "ign"], ["one", "."], ["some", "thing"], ["st", "o"], ["vo", "ic"], ["n", "ess,"], ["can", "st"], ["queen", ","], ["Nor", "fol"], ["speak", "."], ["su", "ff"], ["be", "come"], ["love", "d"], ["m", "s"], ["in", "deed"], ["i", "ous"], ["fl", "atter"], ["know", ","], ["!", "'"], ["mis", "s"], ["n", "'d"], ["heaven", ","], ["un", "cle"], ["w", "ast"], ["look", "s"], ["ser", "ve"], ["ed", ":"], ["We", "l"], ["wi", "xt"], ["ce", "pt"], ["p", "ie"], ["live", ","], ["k", "n"], ["k", "new"], ["w", "atch"], ["or", ","], ["night", ","], ["O", "P"], ["c", "red"], ["AU", "MER"], ["AUMER", "LE:"], ["AN", "TON"], ["ANTON", "IO:"], ["reven", "ge"], ["ene", "mi"], ["as", "h"], ["l", "ow"], ["th", "ri"], ["i", "de"], ["p", "ow"], ["st", "ir"], ["man", "."], ["Mad", "am,"], ["Th", "us"], ["bra", "ve"], ["p", "ra"], ["know", "s"], ["there", ","], ["fa", "st"], ["tong", "u"], ["ion", "."], ["conf", "ess"], ["ser", "vice"], ["mor", "tal"], ["again", ","], ["T", "ran"], ["a", "w"], ["h", "ood"], ["all", "ow"], ["L", "anca"], ["king", "'s"], ["did", "st"], ["B", "i"], ["GON", "Z"], ["GONZ", "A"], ["GONZA", "LO:"], ["g", "er"], ["p", "ed"], ["ou", "s,"], ["use", "d"], ["heart", ","], ["Y", "e"], ["ver", "s"], ["just", "ice"], ["b", "un"], ["he", "ld"], ["cer", "tain"], ["e", "per"], ["in", "de"], ["h", "ur"], ["too", "k"], ["ing", ":"], ["ard", ","], ["min", "e,"], ["brother", "'s"], ["to", "o,"], ["po", "ss"], ["ca", "st"], ["M", "ost"], ["honour", ","], ["st", "ar"], ["S", "ay"], ["cl", "oud"], ["b", "ook"], ["na", "me,"], ["a", "bo"], ["pro", "p"], ["bre", "athe"], ["P", "om"], ["H", "ER"], ["K", "ate"], ["Bi", "anca"], ["come", "."], ["do", ","], ["ment", "s"], ["i", "ce,"], ["B", "es"], ["f", "our"], ["sh", "ort"], ["b", "row"], ["bre", "ast"], ["w", "he"], ["spe", "ed"], ["P", "l"], ["i", "an"], ["gri", "e"], ["ment", ","], ["con", "sent"], ["of", "ten"], ["sir", "?"], ["g", "ave"], ["b", "on"], ["spir", "it"], ["comp", "an"], ["tem", "pt"], ["c", "ure"], ["in", "e,"], ["go", ","], ["mar", "ry"], ["Mar", "ry,"], ["Rome", "o,"], ["i", "o,"], ["Pet", "ru"], ["CLIFF", "ORD:"], ["HER", "MI"], ["HERMI", "ONE:"], ["CL", "AU"], ["CLAU", "D"], ["CLAUD", "IO:"], ["fur", "ther"], ["us", "ur"], ["i", "ly"], ["n", "er"], ["c", "y"], ["M", "ake"], ["si", "ck"]]}